<?xml version="1.0"?>
<opencv_storage>
<cascade>
  <stageType>BOOST</stageType>
  <featureType>LBP</featureType>
  <height>13</height>
  <width>52</width>
  <stageParams>
    <boostType>GAB</boostType>
    <minHitRate>9.9500000476837158e-01</minHitRate>
    <maxFalseAlarm>4.4999998807907104e-01</maxFalseAlarm>
    <weightTrimRate>9.4999999999999996e-01</weightTrimRate>
    <maxDepth>1</maxDepth>
    <maxWeakCount>100</maxWeakCount></stageParams>
  <featureParams>
    <maxCatCount>256</maxCatCount>
    <featSize>1</featSize></featureParams>
  <stageNum>20</stageNum>
  <stages>
    <!-- stage 0 -->
    <_>
      <maxWeakCount>3</maxWeakCount>
      <stageThreshold>-6.9930112361907959e-01</stageThreshold>
      <weakClassifiers>
        <_>
          <internalNodes>
            0 -1 67 268435504 328546427 863843193 2080185333 335050570
            -1157652643 352075263 454558952</internalNodes>
          <leafValues>
            -7.3522812128067017e-01 8.2627576589584351e-01</leafValues></_>
        <_>
          <internalNodes>
            0 -1 92 337645616 1358954896 -1744825959 -35843815 507512988
            495192264 680011985 -1153943144</internalNodes>
          <leafValues>
            -7.0905250310897827e-01 7.8351324796676636e-01</leafValues></_>
        <_>
          <internalNodes>
            0 -1 156 -894728446 -1057063681 -1075053056 1123811172
            -143428352 72875895 -134754558 -135070237</internalNodes>
          <leafValues>
            -6.6205894947052002e-01 7.4497950077056885e-01</leafValues></_></weakClassifiers></_>
    <!-- stage 1 -->
    <_>
      <maxWeakCount>5</maxWeakCount>
      <stageThreshold>-5.0400662422180176e-01</stageThreshold>
      <weakClassifiers>
        <_>
          <internalNodes>
            0 -1 47 499399900 1068514400 -1795899651 -550430284 -2298147
            -4948104 -1231241473 -1173877752</internalNodes>
          <leafValues>
            -5.1487708091735840e-01 8.2067346572875977e-01</leafValues></_>
        <_>
          <internalNodes>
            0 -1 14 -957879706 -823202130 -1360861502 -521343250
            1173640820 89522038 1465317204 -186130561</internalNodes>
          <leafValues>
            -6.4189326763153076e-01 7.1552699804306030e-01</leafValues></_>
        <_>
          <internalNodes>
            0 -1 81 269488144 -577744868 -603786753 2110849175 428064907
            -1148550975 -1791327233 -1145961028</internalNodes>
          <leafValues>
            -6.8028420209884644e-01 6.5553432703018188e-01</leafValues></_>
        <_>
          <internalNodes>
            0 -1 159 -746327550 -2147319286 1158252672 -2120859645
            805390080 17006592 -2104262144 -409471333</internalNodes>
          <leafValues>
            -5.8992975950241089e-01 6.8463391065597534e-01</leafValues></_>
        <_>
          <internalNodes>
            0 -1 69 345769120 -653979536 -1027074659 -620096167
            289412568 -1389858628 462700275 -9827672</internalNodes>
          <leafValues>
            -6.6184675693511963e-01 5.8742719888687134e-01</leafValues></_></weakClassifiers></_>
    <!-- stage 2 -->
    <_>
      <maxWeakCount>5</maxWeakCount>
      <stageThreshold>-4.7589081525802612e-01</stageThreshold>
      <weakClassifiers>
        <_>
          <internalNodes>
            0 -1 57 268435664 1608325868 710814205 2004814257 1064842986
            -1073923088 255696891 459801640</internalNodes>
          <leafValues>
            -6.3870966434478760e-01 7.3146855831146240e-01</leafValues></_>
        <_>
          <internalNodes>
            0 -1 38 835468764 -225540 1999302109 -1721756552 -67623
            -815087787 -1075267841 -1425536884</internalNodes>
          <leafValues>
            -5.3418117761611938e-01 7.1807247400283813e-01</leafValues></_>
        <_>
          <internalNodes>
            0 -1 77 -1073496062 -197677279 -16777405 1094962359
            -378812433 -425197641 1342175223 -1037574121</internalNodes>
          <leafValues>
            -4.7287788987159729e-01 7.6298230886459351e-01</leafValues></_>
        <_>
          <internalNodes>
            0 -1 113 -925899262 -796721024 1074036738 1346601026
            -1068330302 8470533 1073857034 392951595</internalNodes>
          <leafValues>
            -6.5735900402069092e-01 5.7146733999252319e-01</leafValues></_>
        <_>
          <internalNodes>
            0 -1 146 -203951966 313258758 -1073722368 151830672
            -486163584 555764354 1896603648 -8132485</internalNodes>
          <leafValues>
            -5.7343620061874390e-01 5.9841060638427734e-01</leafValues></_></weakClassifiers></_>
    <!-- stage 3 -->
    <_>
      <maxWeakCount>6</maxWeakCount>
      <stageThreshold>-1.2528623342514038e+00</stageThreshold>
      <weakClassifiers>
        <_>
          <internalNodes>
            0 -1 80 470818040 -40627944 989860049 -707734639 1294502040
            -1115092824 281032860 504891392</internalNodes>
          <leafValues>
            -6.5524190664291382e-01 6.2741315364837646e-01</leafValues></_>
        <_>
          <internalNodes>
            0 -1 11 -419434769 -889262161 -419549462 -1058232577
            1744703359 116324219 1467442883 -671088641</internalNodes>
          <leafValues>
            -4.8302137851715088e-01 6.9513213634490967e-01</leafValues></_>
        <_>
          <internalNodes>
            0 -1 160 -335557726 -1943290177 -67380480 -1934688257
            1937630576 52363126 -1208486752 -170917945</internalNodes>
          <leafValues>
            -4.8964694142341614e-01 6.0550308227539062e-01</leafValues></_>
        <_>
          <internalNodes>
            0 -1 99 2101392 364317337 285304287 366559645 705342107
            -72675189 -1702770177 413666492</internalNodes>
          <leafValues>
            -7.4804013967514038e-01 4.0905672311782837e-01</leafValues></_>
        <_>
          <internalNodes>
            0 -1 119 -536625150 -1743007738 26329498 -754470637
            -1022391637 -1543388158 -1064852861 1109648931</internalNodes>
          <leafValues>
            -5.5386763811111450e-01 4.9164035916328430e-01</leafValues></_>
        <_>
          <internalNodes>
            0 -1 53 462422736 -539814847 1343228157 1558057780
            -1952957953 -2003662568 -1457466719 -1959657284</internalNodes>
          <leafValues>
            -7.0084935426712036e-01 3.4839212894439697e-01</leafValues></_></weakClassifiers></_>
    <!-- stage 4 -->
    <_>
      <maxWeakCount>6</maxWeakCount>
      <stageThreshold>-1.1578449010848999e+00</stageThreshold>
      <weakClassifiers>
        <_>
          <internalNodes>
            0 -1 157 -254 14417791 -4456704 -1067122714 1870617600
            1114472247 -159914240 -220725289</internalNodes>
          <leafValues>
            -4.8266297578811646e-01 7.5094056129455566e-01</leafValues></_>
        <_>
          <internalNodes>
            0 -1 16 -419503698 9105474 -938942330 -590941850 1073827398
            1346439171 -452226489 -139206673</internalNodes>
          <leafValues>
            -5.6799030303955078e-01 5.7676422595977783e-01</leafValues></_>
        <_>
          <internalNodes>
            0 -1 56 4176 -614377449 461502943 1562054941 -1162116945
            -368342615 -2013127685 169018481</internalNodes>
          <leafValues>
            -6.4715850353240967e-01 4.6054738759994507e-01</leafValues></_>
        <_>
          <internalNodes>
            0 -1 105 -36707670 -1832681337 554074178 -1836637174
            -2113888126 5963778 -536218661 1130615763</internalNodes>
          <leafValues>
            -6.2576645612716675e-01 4.5993506908416748e-01</leafValues></_>
        <_>
          <internalNodes>
            0 -1 70 -586132611 -545489735 1073487869 -1107485507
            -43663617 -285442051 -1078263809 -1079895956</internalNodes>
          <leafValues>
            -4.9850940704345703e-01 5.6166738271713257e-01</leafValues></_>
        <_>
          <internalNodes>
            0 -1 130 -1028479742 -533835264 442880 317702531 1619155008
            1090756608 1362297108 -672173073</internalNodes>
          <leafValues>
            -6.2953752279281616e-01 4.5243948698043823e-01</leafValues></_></weakClassifiers></_>
    <!-- stage 5 -->
    <_>
      <maxWeakCount>6</maxWeakCount>
      <stageThreshold>-1.2509076595306396e+00</stageThreshold>
      <weakClassifiers>
        <_>
          <internalNodes>
            0 -1 35 608184828 -1075523864 1073672191 1006374392 -729092
            -207240 -1073971713 -1909981048</internalNodes>
          <leafValues>
            -5.3434562683105469e-01 7.5046008825302124e-01</leafValues></_>
        <_>
          <internalNodes>
            0 -1 132 8389877 -134410241 -1073889281 -34259201
            -1348286529 -17924099 -1166229521 -1381366599</internalNodes>
          <leafValues>
            -5.0550836324691772e-01 6.6357320547103882e-01</leafValues></_>
        <_>
          <internalNodes>
            0 -1 121 856691196 -652738343 957370845 -675789 -1357378561
            -9961436 -1626564373 -1680340424</internalNodes>
          <leafValues>
            -5.4666894674301147e-01 5.4661422967910767e-01</leafValues></_>
        <_>
          <internalNodes>
            0 -1 117 -2428948 1070077972 285528284 301470108 153893373
            991167169 692590844 -1069057</internalNodes>
          <leafValues>
            -5.1535505056381226e-01 4.9422639608383179e-01</leafValues></_>
        <_>
          <internalNodes>
            0 -1 61 1342246996 -12717157 1887817503 2010592535
            -1417068818 -1157242728 -1042572545 406864010</internalNodes>
          <leafValues>
            -5.7962900400161743e-01 4.4763016700744629e-01</leafValues></_>
        <_>
          <internalNodes>
            0 -1 28 -2013125912 -65099278 1946172895 -1122070198
            -880178471 -74378842 -1410454069 -1410400184</internalNodes>
          <leafValues>
            -6.1383342742919922e-01 4.0334025025367737e-01</leafValues></_></weakClassifiers></_>
    <!-- stage 6 -->
    <_>
      <maxWeakCount>7</maxWeakCount>
      <stageThreshold>-6.6774046421051025e-01</stageThreshold>
      <weakClassifiers>
        <_>
          <internalNodes>
            0 -1 125 1069333464 -34046596 -537067523 -1612759043
            -1347879684 -4391952 -1630732548 -1919153136</internalNodes>
          <leafValues>
            -4.2367833852767944e-01 6.7791074514389038e-01</leafValues></_>
        <_>
          <internalNodes>
            0 -1 153 -201328894 1950349293 -16777297 1350235884
            326627072 402652023 -687866685 -206045189</internalNodes>
          <leafValues>
            -4.2791157960891724e-01 6.0495716333389282e-01</leafValues></_>
        <_>
          <internalNodes>
            0 -1 54 268435476 -607579950 1577306591 -11202145
            -2003863317 -6356769 1003129838 218105357</internalNodes>
          <leafValues>
            -6.9029599428176880e-01 3.6998203396797180e-01</leafValues></_>
        <_>
          <internalNodes>
            0 -1 66 336597652 321913244 -1789906247 1028668529
            1026040541 697827493 -216417541 -1644500533</internalNodes>
          <leafValues>
            -5.9979563951492310e-01 3.7635150551795959e-01</leafValues></_>
        <_>
          <internalNodes>
            0 -1 115 1074512386 -804027125 -1056583657 2005400787
            1766058731 -133775360 -255070133 1073999887</internalNodes>
          <leafValues>
            -5.7558596134185791e-01 4.1028058528900146e-01</leafValues></_>
        <_>
          <internalNodes>
            0 -1 26 -621619114 -1073826892 1052700415 -1112511324
            -824836375 -814320010 -269582341 -26819650</internalNodes>
          <leafValues>
            -4.4853806495666504e-01 5.2673149108886719e-01</leafValues></_>
        <_>
          <internalNodes>
            0 -1 10 -286529813 -831656338 -1343240674 -219947025
            1735882310 637532022 -420063538 -156502017</internalNodes>
          <leafValues>
            -4.3921816349029541e-01 5.5078655481338501e-01</leafValues></_></weakClassifiers></_>
    <!-- stage 7 -->
    <_>
      <maxWeakCount>8</maxWeakCount>
      <stageThreshold>-7.2861862182617188e-01</stageThreshold>
      <weakClassifiers>
        <_>
          <internalNodes>
            0 -1 127 8389840 -2420739 -1073872897 -1107329025
            -1342459921 -65537 -1427443713 -1347933441</internalNodes>
          <leafValues>
            -3.7081849575042725e-01 6.7569571733474731e-01</leafValues></_>
        <_>
          <internalNodes>
            0 -1 18 -1024463121 -420479249 -286331346 -356618514
            1197987699 1161256815 -134232089 -138412293</internalNodes>
          <leafValues>
            -4.2278701066970825e-01 5.8042669296264648e-01</leafValues></_>
        <_>
          <internalNodes>
            0 -1 27 2147370486 -33614210 -1094828033 -1087750158
            -545663238 -16888085 -1082458117 -1413853838</internalNodes>
          <leafValues>
            -4.6774172782897949e-01 5.1409983634948730e-01</leafValues></_>
        <_>
          <internalNodes>
            0 -1 95 1073938435 -536875013 -1 -537434249 -537137169
            -268500993 -268435969 -1019510642</internalNodes>
          <leafValues>
            -4.4294404983520508e-01 5.2094316482543945e-01</leafValues></_>
        <_>
          <internalNodes>
            0 -1 114 -16641 1036320484 2105294844 -1074216964 468991996
            532430845 1073486841 -1050625</internalNodes>
          <leafValues>
            -4.2005982995033264e-01 5.7099932432174683e-01</leafValues></_>
        <_>
          <internalNodes>
            0 -1 59 533669770 456732520 213388561 493693183 -1633083921
            499916348 -1889784085 -2949121</internalNodes>
          <leafValues>
            -4.1755390167236328e-01 5.4097002744674683e-01</leafValues></_>
        <_>
          <internalNodes>
            0 -1 4 1116340786 -8974921 -138176675 -15335395 1115927295
            -873734069 -1080362515 -2090450428</internalNodes>
          <leafValues>
            -5.4968589544296265e-01 4.1844707727432251e-01</leafValues></_>
        <_>
          <internalNodes>
            0 -1 79 -539829266 2074362197 134513372 1560547952
            -662158868 428347504 180881660 -6415106</internalNodes>
          <leafValues>
            -5.4552620649337769e-01 4.2246851325035095e-01</leafValues></_></weakClassifiers></_>
    <!-- stage 8 -->
    <_>
      <maxWeakCount>8</maxWeakCount>
      <stageThreshold>-1.2025361061096191e+00</stageThreshold>
      <weakClassifiers>
        <_>
          <internalNodes>
            0 -1 141 4112 -1153888165 -1874502305 -35581795 -1508212323
            -1695817513 -930354497 498599132</internalNodes>
          <leafValues>
            -5.7372987270355225e-01 5.3537809848785400e-01</leafValues></_>
        <_>
          <internalNodes>
            0 -1 156 -71576061 721539458 -2125860864 -1327640497
            -343821562 302178315 -234241690 -147068193</internalNodes>
          <leafValues>
            -5.0986975431442261e-01 4.5348939299583435e-01</leafValues></_>
        <_>
          <internalNodes>
            0 -1 74 1364574717 1395783091 661661491 859359531 878726590
            1064996706 152437386 995819530</internalNodes>
          <leafValues>
            -4.7720831632614136e-01 5.0899821519851685e-01</leafValues></_>
        <_>
          <internalNodes>
            0 -1 128 -73466948 788794880 1362137396 855904916 973881532
            675283296 151266232 -2106421</internalNodes>
          <leafValues>
            -5.3582352399826050e-01 4.0438374876976013e-01</leafValues></_>
        <_>
          <internalNodes>
            0 -1 12 -353898778 1145758218 -1929361194 1074450682
            1023474603 1614954633 203293695 1452822511</internalNodes>
          <leafValues>
            -6.5874433517456055e-01 2.8179052472114563e-01</leafValues></_>
        <_>
          <internalNodes>
            0 -1 72 -1459584264 936707466 958999039 2145028293
            -1951923719 530481818 -341142837 -271660083</internalNodes>
          <leafValues>
            -5.1164609193801880e-01 3.7647646665573120e-01</leafValues></_>
        <_>
          <internalNodes>
            0 -1 147 -1139018502 976655528 151764848 1009047312
            -1977925400 50472712 -2096229932 1571277765</internalNodes>
          <leafValues>
            -5.9225445985794067e-01 3.2017415761947632e-01</leafValues></_>
        <_>
          <internalNodes>
            0 -1 65 -769134449 -781769166 738189679 -517218597
            -1468107542 -530057994 1159058122 -914372734</internalNodes>
          <leafValues>
            -3.3310985565185547e-01 5.7536900043487549e-01</leafValues></_></weakClassifiers></_>
    <!-- stage 9 -->
    <_>
      <maxWeakCount>10</maxWeakCount>
      <stageThreshold>-1.0929948091506958e+00</stageThreshold>
      <weakClassifiers>
        <_>
          <internalNodes>
            0 -1 89 1268783352 -1680333316 -1995171875 -546811568
            -1153951528 -25685540 481979326 503317376</internalNodes>
          <leafValues>
            -6.5763193368911743e-01 5.1809358596801758e-01</leafValues></_>
        <_>
          <internalNodes>
            0 -1 5 -290461713 -286267458 -303038721 1409248879
            1198418719 654311421 1702885375 -268442249</internalNodes>
          <leafValues>
            -3.6059865355491638e-01 6.3022410869598389e-01</leafValues></_>
        <_>
          <internalNodes>
            0 -1 96 -2147229693 -13634057 -273416353 -172228633
            -810814530 -402653186 -427825281 -1072963190</internalNodes>
          <leafValues>
            -3.7279599905014038e-01 5.2939605712890625e-01</leafValues></_>
        <_>
          <internalNodes>
            0 -1 161 -73947262 -480804422 -1869360864 -338574381
            -1987058925 1388570762 -1299979232 -671350817</internalNodes>
          <leafValues>
            -4.6427762508392334e-01 4.2910659313201904e-01</leafValues></_>
        <_>
          <internalNodes>
            0 -1 106 890505232 -550415371 -1194241165 2136966157
            2057833726 -1412759414 453118691 462094756</internalNodes>
          <leafValues>
            -6.5072351694107056e-01 2.8600060939788818e-01</leafValues></_>
        <_>
          <internalNodes>
            0 -1 107 402657493 -832932 -1130700321 1027801719
            -1682551585 -341081971 831064303 -1190524783</internalNodes>
          <leafValues>
            -4.9711650609970093e-01 3.9226132631301880e-01</leafValues></_>
        <_>
          <internalNodes>
            0 -1 111 -215304242 857219596 -1073183588 923013380
            706227404 176685065 437521064 -1141904263</internalNodes>
          <leafValues>
            -5.2936607599258423e-01 3.8025334477424622e-01</leafValues></_>
        <_>
          <internalNodes>
            0 -1 142 -720721176 -1952272242 -1574140416 -918454000
            1528144034 20971561 -653373198 1408234495</internalNodes>
          <leafValues>
            -5.5679053068161011e-01 3.4577098488807678e-01</leafValues></_>
        <_>
          <internalNodes>
            0 -1 0 -961819341 -88080670 -268452033 -571082895 671051775
            -1610612738 1476386750 -437361167</internalNodes>
          <leafValues>
            -3.3131811022758484e-01 5.8398485183715820e-01</leafValues></_>
        <_>
          <internalNodes>
            0 -1 15 -630529534 821203600 1367365746 407785590
            -2122170104 -355506136 1115713728 -1621438244</internalNodes>
          <leafValues>
            -5.7639539241790771e-01 3.5902667045593262e-01</leafValues></_></weakClassifiers></_>
    <!-- stage 10 -->
    <_>
      <maxWeakCount>9</maxWeakCount>
      <stageThreshold>-9.2750275135040283e-01</stageThreshold>
      <weakClassifiers>
        <_>
          <internalNodes>
            0 -1 144 -891302398 1191182271 -1024458849 -168820881
            -50856657 -85983378 1459616766 -521142297</internalNodes>
          <leafValues>
            -2.2690132260322571e-01 6.6201674938201904e-01</leafValues></_>
        <_>
          <internalNodes>
            0 -1 140 -1628373252 -4325379 922550205 -8830979 -1347502099
            -268632068 -1073824545 -1079372784</internalNodes>
          <leafValues>
            -4.4363215565681458e-01 4.8756408691406250e-01</leafValues></_>
        <_>
          <internalNodes>
            0 -1 31 -405289178 -1896880529 -1532170513 -1448105397
            1693906399 -713164836 -709361697 -190581281</internalNodes>
          <leafValues>
            -4.1319349408149719e-01 4.6179705858230591e-01</leafValues></_>
        <_>
          <internalNodes>
            0 -1 46 -1712803364 2140864544 -1372565259 522064200
            -2004160455 -20938616 -639452197 -1448207940</internalNodes>
          <leafValues>
            -5.0677126646041870e-01 3.6937710642814636e-01</leafValues></_>
        <_>
          <internalNodes>
            0 -1 94 268435664 -711109818 -1827448329 -1077816889
            -1276345864 -1172673151 -1902450213 -1180954468</internalNodes>
          <leafValues>
            -6.3288116455078125e-01 2.7915251255035400e-01</leafValues></_>
        <_>
          <internalNodes>
            0 -1 123 -638594910 268961996 285609984 42321126 -896767341
            274783 1946374803 1460656959</internalNodes>
          <leafValues>
            -5.9260505437850952e-01 2.8396591544151306e-01</leafValues></_>
        <_>
          <internalNodes>
            0 -1 158 -83889913 1113385017 -1064048384 -689663868
            281467398 1375731858 -401949946 -207881262</internalNodes>
          <leafValues>
            -4.7506123781204224e-01 3.9324265718460083e-01</leafValues></_>
        <_>
          <internalNodes>
            0 -1 83 2133329720 -570688739 -2130632293 -27578348 17591512
            2047617192 952763647 -1882570019</internalNodes>
          <leafValues>
            -5.7798165082931519e-01 3.1152889132499695e-01</leafValues></_>
        <_>
          <internalNodes>
            0 -1 104 -57678334 1617151561 352883862 1150738986
            1124239216 16794176 1360199785 1404035919</internalNodes>
          <leafValues>
            -6.0050582885742188e-01 2.8503865003585815e-01</leafValues></_></weakClassifiers></_>
    <!-- stage 11 -->
    <_>
      <maxWeakCount>9</maxWeakCount>
      <stageThreshold>-6.5134501457214355e-01</stageThreshold>
      <weakClassifiers>
        <_>
          <internalNodes>
            0 -1 50 17 -8552473 -134217729 -1107853315 -1375801345
            -16842753 -1077942561 682493049</internalNodes>
          <leafValues>
            -4.5397490262985229e-01 5.5152672529220581e-01</leafValues></_>
        <_>
          <internalNodes>
            0 -1 164 -8390733 -944766977 -208 -541069377 -1619918943
            267845503 -839385872 -772276249</internalNodes>
          <leafValues>
            -3.4369987249374390e-01 5.9128594398498535e-01</leafValues></_>
        <_>
          <internalNodes>
            0 -1 118 -1073512445 -4465537 -536907905 -2130445 -50331649
            -67113025 -138414081 -788282365</internalNodes>
          <leafValues>
            -3.2653626799583435e-01 5.6060796976089478e-01</leafValues></_>
        <_>
          <internalNodes>
            0 -1 131 -109338882 -72187816 1120409276 2090635344
            406585560 143130800 1246776556 2147470843</internalNodes>
          <leafValues>
            -4.6936580538749695e-01 3.9699852466583252e-01</leafValues></_>
        <_>
          <internalNodes>
            0 -1 138 -134824518 -537087600 32788 956830090 -112711208
            1526726673 1512048860 1341119227</internalNodes>
          <leafValues>
            -5.2112162113189697e-01 3.3559557795524597e-01</leafValues></_>
        <_>
          <internalNodes>
            0 -1 122 10514673 2010882930 -577115939 -149556833
            -1312040197 -125730688 667075051 228080052</internalNodes>
          <leafValues>
            -5.6403869390487671e-01 3.1935325264930725e-01</leafValues></_>
        <_>
          <internalNodes>
            0 -1 13 570747456 -7330704 548798519 -1081675581 -761858852
            -329216528 -1948677903 -37240013</internalNodes>
          <leafValues>
            -4.6113425493240356e-01 4.1155099868774414e-01</leafValues></_>
        <_>
          <internalNodes>
            0 -1 51 -2114898 -2020302634 50337168 27068794 4730104
            961028200 726677212 2142827002</internalNodes>
          <leafValues>
            -5.4473996162414551e-01 3.4981402754783630e-01</leafValues></_>
        <_>
          <internalNodes>
            0 -1 116 -95427666 877300779 -1073676032 1368638113
            1931716802 2030108672 381912473 -225448537</internalNodes>
          <leafValues>
            -4.4110262393951416e-01 4.2679291963577271e-01</leafValues></_></weakClassifiers></_>
    <!-- stage 12 -->
    <_>
      <maxWeakCount>10</maxWeakCount>
      <stageThreshold>-1.1270651817321777e+00</stageThreshold>
      <weakClassifiers>
        <_>
          <internalNodes>
            0 -1 154 -352588030 170913791 -16779486 1655635951
            2138963488 1467351022 -134744830 -407371777</internalNodes>
          <leafValues>
            -3.6097562313079834e-01 6.0766547918319702e-01</leafValues></_>
        <_>
          <internalNodes>
            0 -1 36 -1442638575 -293601345 -537919497 -10108955
            -805863425 -285212674 -1375748097 -1364847407</internalNodes>
          <leafValues>
            -4.0721344947814941e-01 4.4638720154762268e-01</leafValues></_>
        <_>
          <internalNodes>
            0 -1 139 -1392738 520622596 1258330384 968139344 856449260
            445653713 143393256 -603981313</internalNodes>
          <leafValues>
            -4.6798607707023621e-01 3.9537689089775085e-01</leafValues></_>
        <_>
          <internalNodes>
            0 -1 73 -1072968702 -108551997 1505975115 -149696013
            -311705461 -1467232208 -810550805 -1064836498</internalNodes>
          <leafValues>
            -4.0995228290557861e-01 4.4802248477935791e-01</leafValues></_>
        <_>
          <internalNodes>
            0 -1 64 1206179319 1932654994 -214979969 -116164053
            1471926189 -1137033927 1283108527 1266090510</internalNodes>
          <leafValues>
            -3.7121617794036865e-01 4.7088930010795593e-01</leafValues></_>
        <_>
          <internalNodes>
            0 -1 149 -1751648004 -1120202670 -887011980 423055408
            151685277 -743231266 495665396 -54302795</internalNodes>
          <leafValues>
            -4.5118173956871033e-01 3.7657308578491211e-01</leafValues></_>
        <_>
          <internalNodes>
            0 -1 102 -567286398 79781953 1096844288 1086574618 864751778
            4235269 -448703958 1665136415</internalNodes>
          <leafValues>
            -6.1996233463287354e-01 2.7207493782043457e-01</leafValues></_>
        <_>
          <internalNodes>
            0 -1 30 -404230201 728760227 -1114505 -1158546721 -153618433
            998105079 -722143849 -1310218794</internalNodes>
          <leafValues>
            -3.5194352269172668e-01 4.8467722535133362e-01</leafValues></_>
        <_>
          <internalNodes>
            0 -1 20 -292624818 1242317571 1192547042 -969485890
            2055817248 -267726695 864604603 -1106253346</internalNodes>
          <leafValues>
            -5.7076114416122437e-01 3.0997100472450256e-01</leafValues></_>
        <_>
          <internalNodes>
            0 -1 110 158342284 -1154458316 1393582300 518734229
            1678258941 -68549992 693770986 772278424</internalNodes>
          <leafValues>
            -8.2370376586914062e-01 2.4799467623233795e-01</leafValues></_></weakClassifiers></_>
    <!-- stage 13 -->
    <_>
      <maxWeakCount>11</maxWeakCount>
      <stageThreshold>-8.8272225856781006e-01</stageThreshold>
      <weakClassifiers>
        <_>
          <internalNodes>
            0 -1 9 -956325270 1122651882 -285282642 -1594464600
            1727472964 1081603447 -403179658 -681052169</internalNodes>
          <leafValues>
            -3.6549165844917297e-01 5.6055593490600586e-01</leafValues></_>
        <_>
          <internalNodes>
            0 -1 25 2147114495 2135956714 -1677787273 1060141690
            1585335676 -831234249 -8488497 2137161567</internalNodes>
          <leafValues>
            -4.2934575676918030e-01 4.6103465557098389e-01</leafValues></_>
        <_>
          <internalNodes>
            0 -1 150 -637537001 1610088215 2147483639 1433796565
            -285933570 -536903817 -545349937 -493103329</internalNodes>
          <leafValues>
            -2.5241854786872864e-01 6.7985713481903076e-01</leafValues></_>
        <_>
          <internalNodes>
            0 -1 78 -149970518 -753156439 -1895626238 192634415
            -772449590 -1827744633 530776207 -548417653</internalNodes>
          <leafValues>
            -3.7036699056625366e-01 4.5194542407989502e-01</leafValues></_>
        <_>
          <internalNodes>
            0 -1 148 -542769608 151815068 -399258336 -1181255623
            -1462764864 940297313 177983728 -1107835431</internalNodes>
          <leafValues>
            -5.4331302642822266e-01 2.9286193847656250e-01</leafValues></_>
        <_>
          <internalNodes>
            0 -1 100 -2143288192 -103444195 572641367 -720301423
            -1965379875 -1163156310 -1293319985 15081860</internalNodes>
          <leafValues>
            -6.6433441638946533e-01 2.4916325509548187e-01</leafValues></_>
        <_>
          <internalNodes>
            0 -1 76 -4475939 391418236 168069144 824979840 -1962126884
            721174784 232818572 -4276257</internalNodes>
          <leafValues>
            -4.5092737674713135e-01 3.3972787857055664e-01</leafValues></_>
        <_>
          <internalNodes>
            0 -1 22 -606125569 -733818757 -1562196749 -1304899168
            -1744629614 1527382201 585811934 1617262191</internalNodes>
          <leafValues>
            -3.9431527256965637e-01 4.1627037525177002e-01</leafValues></_>
        <_>
          <internalNodes>
            0 -1 60 50602448 2144950369 -1914155819 -578956727 444630153
            -1702362916 -871306853 -1429339859</internalNodes>
          <leafValues>
            -5.3057807683944702e-01 3.2155460119247437e-01</leafValues></_>
        <_>
          <internalNodes>
            0 -1 86 -1571043642 -552861307 1745997918 -624868726
            -736628020 -801104896 1101616522 1480794891</internalNodes>
          <leafValues>
            -4.7289079427719116e-01 3.4671938419342041e-01</leafValues></_>
        <_>
          <internalNodes>
            0 -1 55 40960 -549220236 1526845611 1938633559 -993277282
            -328490592 -83631617 839752</internalNodes>
          <leafValues>
            -7.3061406612396240e-01 2.0364338159561157e-01</leafValues></_></weakClassifiers></_>
    <!-- stage 14 -->
    <_>
      <maxWeakCount>11</maxWeakCount>
      <stageThreshold>-6.9862139225006104e-01</stageThreshold>
      <weakClassifiers>
        <_>
          <internalNodes>
            0 -1 8 -286265625 1852763882 -270242193 -688132122
            1165453063 1108836199 2138953079 -142606881</internalNodes>
          <leafValues>
            -1.5892420709133148e-01 6.3311690092086792e-01</leafValues></_>
        <_>
          <internalNodes>
            0 -1 75 1900146879 890303633 289441035 1024693307 172280539
            472156248 982453743 467340294</internalNodes>
          <leafValues>
            -4.0310329198837280e-01 4.3641403317451477e-01</leafValues></_>
        <_>
          <internalNodes>
            0 -1 152 -118502137 1909286983 -1874771137 1721192915
            -518004222 1409867984 -1765682522 -215811397</internalNodes>
          <leafValues>
            -4.0157422423362732e-01 4.2254403233528137e-01</leafValues></_>
        <_>
          <internalNodes>
            0 -1 98 -4655108 -73651460 1095279100 2056593949 -1698135384
            413933965 723824380 -537993249</internalNodes>
          <leafValues>
            -4.6858054399490356e-01 3.5570979118347168e-01</leafValues></_>
        <_>
          <internalNodes>
            0 -1 45 10485824 -75545197 -1001498153 -12374011 -2105045576
            -660694754 -2012174103 -1897264628</internalNodes>
          <leafValues>
            -6.6561055183410645e-01 2.5876295566558838e-01</leafValues></_>
        <_>
          <internalNodes>
            0 -1 68 -607198646 -212432448 1227002888 -47070270
            -1072594261 -132792173 -217984885 1473244811</internalNodes>
          <leafValues>
            -4.7033333778381348e-01 3.4531757235527039e-01</leafValues></_>
        <_>
          <internalNodes>
            0 -1 34 403704970 -1627090865 1427248153 819305685 461443583
            227184263 -1717038194 525331338</internalNodes>
          <leafValues>
            -5.0637459754943848e-01 3.1616461277008057e-01</leafValues></_>
        <_>
          <internalNodes>
            0 -1 112 -1033640441 -134480065 -16781313 -68176901
            -51806481 -402694145 -419432713 -753670005</internalNodes>
          <leafValues>
            -3.1529751420021057e-01 5.2346760034561157e-01</leafValues></_>
        <_>
          <internalNodes>
            0 -1 165 789038847 67217409 1428373757 -1356934184
            -1995930979 -1992097630 549585048 163739613</internalNodes>
          <leafValues>
            -4.5146718621253967e-01 3.7275382876396179e-01</leafValues></_>
        <_>
          <internalNodes>
            0 -1 21 -635453286 -228187114 -1878862626 848982071
            -909573135 -1062207408 -603467062 -811411545</internalNodes>
          <leafValues>
            -4.0447294712066650e-01 3.9969593286514282e-01</leafValues></_>
        <_>
          <internalNodes>
            0 -1 52 -552587720 -1685023987 285656205 265486467 313072793
            439018651 -1987921957 993692625</internalNodes>
          <leafValues>
            -5.5997925996780396e-01 2.8562429547309875e-01</leafValues></_></weakClassifiers></_>
    <!-- stage 15 -->
    <_>
      <maxWeakCount>12</maxWeakCount>
      <stageThreshold>-8.1821680068969727e-01</stageThreshold>
      <weakClassifiers>
        <_>
          <internalNodes>
            0 -1 163 -33554517 -1367408644 -168821984 -348127269 -2207
            1207402493 -1769916 -738721801</internalNodes>
          <leafValues>
            -2.2980500757694244e-01 5.8035713434219360e-01</leafValues></_>
        <_>
          <internalNodes>
            0 -1 87 -1059677 2074333971 1151535617 -614256673 -176696177
            -1630571098 -11156001 -9177601</internalNodes>
          <leafValues>
            -2.1502161026000977e-01 6.4816546440124512e-01</leafValues></_>
        <_>
          <internalNodes>
            0 -1 6 1801905678 1722073166 -251203435 -389780472
            -532333844 -747517423 25348347 -68823621</internalNodes>
          <leafValues>
            -4.6716496348381042e-01 3.3294323086738586e-01</leafValues></_>
        <_>
          <internalNodes>
            0 -1 1 -926978961 -202686467 2147466871 -8454273 1191163806
            -301989897 -989878786 -1020797372</internalNodes>
          <leafValues>
            -3.3961677551269531e-01 4.3625846505165100e-01</leafValues></_>
        <_>
          <internalNodes>
            0 -1 43 -1340044362 -148953769 37752321 931856803
            -2060601618 -1684926319 -1517483581 197865139</internalNodes>
          <leafValues>
            -4.1184923052787781e-01 3.5758569836616516e-01</leafValues></_>
        <_>
          <internalNodes>
            0 -1 134 522778588 -719503168 -83437259 -12074919
            -1706767139 -629014375 -1164787458 -1096672980</internalNodes>
          <leafValues>
            -4.6391060948371887e-01 3.1467625498771667e-01</leafValues></_>
        <_>
          <internalNodes>
            0 -1 58 -785387762 1628372999 553798146 1393778122
            -1760358251 92799002 -1996300125 -200812801</internalNodes>
          <leafValues>
            -4.1863223910331726e-01 3.4423762559890747e-01</leafValues></_>
        <_>
          <internalNodes>
            0 -1 42 -223872556 -733167940 -1474529412 2133166766
            -1891277095 -956835996 -117698888 -546896894</internalNodes>
          <leafValues>
            -3.4597453474998474e-01 4.3664249777793884e-01</leafValues></_>
        <_>
          <internalNodes>
            0 -1 82 -1340063552 2069748489 -1986765443 -573204141
            -1731950355 -133627495 -1686091590 1752187072</internalNodes>
          <leafValues>
            -5.4556012153625488e-01 2.6283347606658936e-01</leafValues></_>
        <_>
          <internalNodes>
            0 -1 2 -1543075997 -1077406959 -2095999533 -251606703
            -1473261109 -57960053 -208945165 -1985920495</internalNodes>
          <leafValues>
            -4.2326438426971436e-01 3.4566149115562439e-01</leafValues></_>
        <_>
          <internalNodes>
            0 -1 32 -410622205 730591515 -1866382917 982716758 922869879
            674799868 36958156 300145111</internalNodes>
          <leafValues>
            -4.5871514081954956e-01 3.3517608046531677e-01</leafValues></_>
        <_>
          <internalNodes>
            0 -1 124 1328480874 1581581065 1208229938 1377109333
            1409731562 -1073544942 273271963 -616119077</internalNodes>
          <leafValues>
            -4.0090796351432800e-01 3.7550267577171326e-01</leafValues></_></weakClassifiers></_>
    <!-- stage 16 -->
    <_>
      <maxWeakCount>11</maxWeakCount>
      <stageThreshold>-7.0636636018753052e-01</stageThreshold>
      <weakClassifiers>
        <_>
          <internalNodes>
            0 -1 44 -1015812 -1074250435 -1359151107 900775712
            -269721876 -8454148 -579280961 -1640464452</internalNodes>
          <leafValues>
            -3.1719532608985901e-01 5.4774242639541626e-01</leafValues></_>
        <_>
          <internalNodes>
            0 -1 19 -540313742 -670018661 -735816614 939659346
            -129810421 1343316488 -591173029 2136142827</internalNodes>
          <leafValues>
            -4.7289961576461792e-01 3.6479070782661438e-01</leafValues></_>
        <_>
          <internalNodes>
            0 -1 24 17730806 1407039371 -1396437283 -732324002 60794879
            -339791457 1489801199 -2414390</internalNodes>
          <leafValues>
            -4.1045251488685608e-01 3.8421323895454407e-01</leafValues></_>
        <_>
          <internalNodes>
            0 -1 145 -420749558 1116994399 -1589143230 1112789275
            -389588949 -627861366 1251671042 -289408005</internalNodes>
          <leafValues>
            -4.6768563985824585e-01 3.4741300344467163e-01</leafValues></_>
        <_>
          <internalNodes>
            0 -1 40 395311699 817888879 -1090519297 -1168378377
            -155336737 -1279262726 -181094914 -267135658</internalNodes>
          <leafValues>
            -3.2753288745880127e-01 5.0274533033370972e-01</leafValues></_>
        <_>
          <internalNodes>
            0 -1 71 -343962750 270017094 354091668 991254723 -125155144
            254454057 725699583 2033954847</internalNodes>
          <leafValues>
            -5.2274906635284424e-01 2.9672110080718994e-01</leafValues></_>
        <_>
          <internalNodes>
            0 -1 5 -890527382 -2046820674 -303038737 -218108189
            1735912415 1341652989 671053682 -596713731</internalNodes>
          <leafValues>
            -3.6958062648773193e-01 4.3249711394309998e-01</leafValues></_>
        <_>
          <internalNodes>
            0 -1 84 -11381773 -593 770632703 -4492686 -954814565
            -806490153 473778874 991625878</internalNodes>
          <leafValues>
            -3.9410674571990967e-01 4.3593314290046692e-01</leafValues></_>
        <_>
          <internalNodes>
            0 -1 3 -1073053017 -595062204 -549370471 1553193347
            -413420889 -99016420 1458227883 -2082123711</internalNodes>
          <leafValues>
            -4.3550121784210205e-01 3.5943523049354553e-01</leafValues></_>
        <_>
          <internalNodes>
            0 -1 108 807409104 -1978724075 1174519863 970404681
            1753721567 -578719591 149946511 612719204</internalNodes>
          <leafValues>
            -5.8013278245925903e-01 2.8964436054229736e-01</leafValues></_>
        <_>
          <internalNodes>
            0 -1 97 -1320700113 59785271 -2063472374 3921351 386130427
            -1440677872 1342271067 1196650517</internalNodes>
          <leafValues>
            -4.8991736769676208e-01 3.1713321805000305e-01</leafValues></_></weakClassifiers></_>
    <!-- stage 17 -->
    <_>
      <maxWeakCount>11</maxWeakCount>
      <stageThreshold>-8.7356829643249512e-01</stageThreshold>
      <weakClassifiers>
        <_>
          <internalNodes>
            0 -1 23 -890352898 -1901146532 -1359319298 -1498247425
            1341935100 1336889343 1870427903 1341836927</internalNodes>
          <leafValues>
            -4.6485260128974915e-01 5.0033134222030640e-01</leafValues></_>
        <_>
          <internalNodes>
            0 -1 151 -423627517 1068201767 -134217733 2147483637
            -419438721 2079817573 2113927103 -214503813</internalNodes>
          <leafValues>
            -3.4024015069007874e-01 4.6730241179466248e-01</leafValues></_>
        <_>
          <internalNodes>
            0 -1 62 1431670975 1503454545 1421737829 1999731881
            -562243591 -18547992 -685449497 -586552830</internalNodes>
          <leafValues>
            -3.2931300997734070e-01 4.7443127632141113e-01</leafValues></_>
        <_>
          <internalNodes>
            0 -1 17 -45424662 -800922278 -266189726 2138202390
            -616283642 -74841775 1287802759 -82323073</internalNodes>
          <leafValues>
            -4.3818473815917969e-01 3.3100420236587524e-01</leafValues></_>
        <_>
          <internalNodes>
            0 -1 109 497302780 464563797 -752577231 -1756401591
            2073327768 1067190152 -1438098695 732620797</internalNodes>
          <leafValues>
            -6.3053828477859497e-01 2.0368278026580811e-01</leafValues></_>
        <_>
          <internalNodes>
            0 -1 120 -112465118 2112570054 270710786 13172803
            -1702575040 -1072603133 -1220306293 1361569335</internalNodes>
          <leafValues>
            -4.9794018268585205e-01 2.9798153042793274e-01</leafValues></_>
        <_>
          <internalNodes>
            0 -1 37 -853052381 -1456755156 -285212937 -1121468682
            -184586265 -554178561 -268544065 -1414577057</internalNodes>
          <leafValues>
            -3.5044014453887939e-01 4.5740535855293274e-01</leafValues></_>
        <_>
          <internalNodes>
            0 -1 135 672119700 -1857945548 -1792409383 698602881
            -2146721672 -1953785813 207648980 750389268</internalNodes>
          <leafValues>
            -6.5376901626586914e-01 2.3620902001857758e-01</leafValues></_>
        <_>
          <internalNodes>
            0 -1 7 353040350 -1802333277 564239358 -1162434492
            -800079332 1124926085 547162347 342827235</internalNodes>
          <leafValues>
            -4.6546941995620728e-01 3.2527580857276917e-01</leafValues></_>
        <_>
          <internalNodes>
            0 -1 85 -81037365 -791314915 -1071312057 301455919
            -1117342510 -2074651762 -280984881 -614480289</internalNodes>
          <leafValues>
            -2.8037866950035095e-01 5.7513630390167236e-01</leafValues></_>
        <_>
          <internalNodes>
            0 -1 103 81 -132906357 1084445991 -787389668 -1976982629
            -358154053 -1987197441 -1472328691</internalNodes>
          <leafValues>
            -5.5292695760726929e-01 2.8405472636222839e-01</leafValues></_></weakClassifiers></_>
    <!-- stage 18 -->
    <_>
      <maxWeakCount>11</maxWeakCount>
      <stageThreshold>-9.0022885799407959e-01</stageThreshold>
      <weakClassifiers>
        <_>
          <internalNodes>
            0 -1 143 16 -214838767 -1723337897 2044264855 -131090261
            -1421180904 -230634533 438840363</internalNodes>
          <leafValues>
            -5.6231886148452759e-01 4.6355140209197998e-01</leafValues></_>
        <_>
          <internalNodes>
            0 -1 162 -537940994 -574623753 -134219524 -1610612745
            1069528509 503183358 -539593228 -1654653449</internalNodes>
          <leafValues>
            -3.6486461758613586e-01 4.2197060585021973e-01</leafValues></_>
        <_>
          <internalNodes>
            0 -1 101 -301730301 1936138787 -2130504685 -194044375
            -416033909 -1921636573 -1037939510 -1657014081</internalNodes>
          <leafValues>
            -2.3329597711563110e-01 5.7385712862014771e-01</leafValues></_>
        <_>
          <internalNodes>
            0 -1 88 -906185252 335303216 -1021312912 331360384
            -1706268456 799824168 452723418 -2475014</internalNodes>
          <leafValues>
            -5.8574515581130981e-01 2.2447891533374786e-01</leafValues></_>
        <_>
          <internalNodes>
            0 -1 63 698060462 991105360 135659672 964276305 -2122405377
            503521930 970743743 1070329579</internalNodes>
          <leafValues>
            -5.0944411754608154e-01 2.8820478916168213e-01</leafValues></_>
        <_>
          <internalNodes>
            0 -1 137 1044232444 -619175524 1358988348 1498960698
            -1442796888 -1910503864 516009151 1058652248</internalNodes>
          <leafValues>
            -6.0673779249191284e-01 2.1279890835285187e-01</leafValues></_>
        <_>
          <internalNodes>
            0 -1 0 -424685961 -536875269 -822100161 -168690058 671023102
            -536871041 -570431497 1289701239</internalNodes>
          <leafValues>
            -3.3487963676452637e-01 4.3590751290321350e-01</leafValues></_>
        <_>
          <internalNodes>
            0 -1 48 -268450610 -774944721 1547883584 -267398207
            1094912046 201466627 -2049846505 -944576377</internalNodes>
          <leafValues>
            -4.3047916889190674e-01 3.3325392007827759e-01</leafValues></_>
        <_>
          <internalNodes>
            0 -1 39 -640458579 -556316976 -5247922 -1333130386
            -139926648 -202514937 -1764756488 -509749284</internalNodes>
          <leafValues>
            -3.3636209368705750e-01 4.4516488909721375e-01</leafValues></_>
        <_>
          <internalNodes>
            0 -1 126 -1073553398 458920481 8459419 -718122607 -460799761
            -607411197 -1056454178 1392742539</internalNodes>
          <leafValues>
            -3.8983520865440369e-01 3.7493434548377991e-01</leafValues></_>
        <_>
          <internalNodes>
            0 -1 133 -184609792 1041994533 -1859923491 -82685742
            -1289338358 -339050424 788765153 -1472446439</internalNodes>
          <leafValues>
            -5.1643013954162598e-01 2.8423401713371277e-01</leafValues></_></weakClassifiers></_>
    <!-- stage 19 -->
    <_>
      <maxWeakCount>11</maxWeakCount>
      <stageThreshold>-7.8599947690963745e-01</stageThreshold>
      <weakClassifiers>
        <_>
          <internalNodes>
            0 -1 155 -402671869 150667127 -67109024 -419692562
            1945589504 1400897527 1995945728 -134742025</internalNodes>
          <leafValues>
            -2.9795917868614197e-01 5.4766356945037842e-01</leafValues></_>
        <_>
          <internalNodes>
            0 -1 33 460326268 -571284718 -1944973220 1536883006
            1497496428 -12406645 820181404 -135462961</internalNodes>
          <leafValues>
            -5.2303004264831543e-01 3.3334553241729736e-01</leafValues></_>
        <_>
          <internalNodes>
            0 -1 29 -352902942 12840364 -273081889 -695742441 -499931451
            -373780449 -1289317965 -252447871</internalNodes>
          <leafValues>
            -4.4787824153900146e-01 3.2422155141830444e-01</leafValues></_>
        <_>
          <internalNodes>
            0 -1 90 268440913 -108376037 -771521065 -70041254 -234712098
            -343160830 -1068796466 865630253</internalNodes>
          <leafValues>
            -5.9718573093414307e-01 2.6137179136276245e-01</leafValues></_>
        <_>
          <internalNodes>
            0 -1 91 -1060650837 -687875845 -279020386 -806363669
            -318847537 -856754576 1165444323 -797458197</internalNodes>
          <leafValues>
            -3.5605174303054810e-01 4.3861874938011169e-01</leafValues></_>
        <_>
          <internalNodes>
            0 -1 136 -1637893697 742008629 688261634 1537191829 49844470
            445383324 968951279 1582037947</internalNodes>
          <leafValues>
            -4.2082166671752930e-01 3.3949866890907288e-01</leafValues></_>
        <_>
          <internalNodes>
            0 -1 93 -1082641475 -1214246540 999436380 990467129
            1737239229 -1148657608 -683100055 -1075167400</internalNodes>
          <leafValues>
            -4.3492549657821655e-01 3.5111823678016663e-01</leafValues></_>
        <_>
          <internalNodes>
            0 -1 41 1727953975 275590693 721411647 834502645 -1476493351
            -1619157059 -982028358 -487067753</internalNodes>
          <leafValues>
            -3.4475377202033997e-01 4.3639963865280151e-01</leafValues></_>
        <_>
          <internalNodes>
            0 -1 129 -3874782 -787791154 134252544 1564709515 -836554524
            1227014272 -720811266 1293660879</internalNodes>
          <leafValues>
            -4.6755787730216980e-01 3.2882934808731079e-01</leafValues></_>
        <_>
          <internalNodes>
            0 -1 152 -343935421 855076675 -536888733 653254646
            -268962042 2004778999 -16844866 -486877825</internalNodes>
          <leafValues>
            -3.7934872508049011e-01 3.8630789518356323e-01</leafValues></_>
        <_>
          <internalNodes>
            0 -1 49 -366556016 -652171829 1074298960 1054244494
            268809088 -1743486975 1234113932 1243038106</internalNodes>
          <leafValues>
            -5.2110642194747925e-01 2.8610283136367798e-01</leafValues></_></weakClassifiers></_></stages>
  <features>
    <_>
      <rect>
        0 0 1 1</rect></_>
    <_>
      <rect>
        0 0 1 2</rect></_>
    <_>
      <rect>
        0 0 3 1</rect></_>
    <_>
      <rect>
        0 0 4 1</rect></_>
    <_>
      <rect>
        0 0 5 1</rect></_>
    <_>
      <rect>
        0 1 1 1</rect></_>
    <_>
      <rect>
        0 1 4 2</rect></_>
    <_>
      <rect>
        0 1 16 1</rect></_>
    <_>
      <rect>
        0 2 1 1</rect></_>
    <_>
      <rect>
        0 2 1 2</rect></_>
    <_>
      <rect>
        0 3 1 1</rect></_>
    <_>
      <rect>
        0 3 1 2</rect></_>
    <_>
      <rect>
        0 3 3 3</rect></_>
    <_>
      <rect>
        0 3 16 1</rect></_>
    <_>
      <rect>
        0 4 1 1</rect></_>
    <_>
      <rect>
        0 4 2 3</rect></_>
    <_>
      <rect>
        0 5 2 2</rect></_>
    <_>
      <rect>
        0 6 2 2</rect></_>
    <_>
      <rect>
        0 7 1 1</rect></_>
    <_>
      <rect>
        0 7 1 2</rect></_>
    <_>
      <rect>
        0 7 2 1</rect></_>
    <_>
      <rect>
        0 7 3 2</rect></_>
    <_>
      <rect>
        0 9 2 1</rect></_>
    <_>
      <rect>
        0 9 4 1</rect></_>
    <_>
      <rect>
        0 9 16 1</rect></_>
    <_>
      <rect>
        0 10 1 1</rect></_>
    <_>
      <rect>
        0 10 4 1</rect></_>
    <_>
      <rect>
        0 10 6 1</rect></_>
    <_>
      <rect>
        1 0 6 1</rect></_>
    <_>
      <rect>
        1 1 2 2</rect></_>
    <_>
      <rect>
        1 1 2 3</rect></_>
    <_>
      <rect>
        1 1 3 3</rect></_>
    <_>
      <rect>
        1 3 2 2</rect></_>
    <_>
      <rect>
        1 4 1 3</rect></_>
    <_>
      <rect>
        1 9 17 1</rect></_>
    <_>
      <rect>
        1 10 9 1</rect></_>
    <_>
      <rect>
        2 0 2 1</rect></_>
    <_>
      <rect>
        2 1 2 1</rect></_>
    <_>
      <rect>
        2 10 16 1</rect></_>
    <_>
      <rect>
        3 1 11 3</rect></_>
    <_>
      <rect>
        3 2 1 2</rect></_>
    <_>
      <rect>
        3 3 1 2</rect></_>
    <_>
      <rect>
        3 4 12 1</rect></_>
    <_>
      <rect>
        3 8 16 1</rect></_>
    <_>
      <rect>
        3 10 2 1</rect></_>
    <_>
      <rect>
        4 0 5 1</rect></_>
    <_>
      <rect>
        4 10 3 1</rect></_>
    <_>
      <rect>
        4 10 9 1</rect></_>
    <_>
      <rect>
        5 6 2 1</rect></_>
    <_>
      <rect>
        5 7 14 1</rect></_>
    <_>
      <rect>
        6 0 2 1</rect></_>
    <_>
      <rect>
        6 4 2 3</rect></_>
    <_>
      <rect>
        6 9 4 1</rect></_>
    <_>
      <rect>
        6 10 10 1</rect></_>
    <_>
      <rect>
        7 0 6 1</rect></_>
    <_>
      <rect>
        8 0 4 2</rect></_>
    <_>
      <rect>
        8 0 7 1</rect></_>
    <_>
      <rect>
        8 0 11 1</rect></_>
    <_>
      <rect>
        8 6 2 1</rect></_>
    <_>
      <rect>
        8 6 9 2</rect></_>
    <_>
      <rect>
        8 10 5 1</rect></_>
    <_>
      <rect>
        9 0 11 2</rect></_>
    <_>
      <rect>
        9 1 13 2</rect></_>
    <_>
      <rect>
        9 6 7 2</rect></_>
    <_>
      <rect>
        10 2 12 1</rect></_>
    <_>
      <rect>
        10 3 8 2</rect></_>
    <_>
      <rect>
        10 9 4 1</rect></_>
    <_>
      <rect>
        11 0 12 1</rect></_>
    <_>
      <rect>
        11 7 10 1</rect></_>
    <_>
      <rect>
        11 9 10 1</rect></_>
    <_>
      <rect>
        11 10 4 1</rect></_>
    <_>
      <rect>
        12 6 4 2</rect></_>
    <_>
      <rect>
        12 9 8 1</rect></_>
    <_>
      <rect>
        14 0 1 3</rect></_>
    <_>
      <rect>
        14 2 9 1</rect></_>
    <_>
      <rect>
        14 2 11 1</rect></_>
    <_>
      <rect>
        14 7 1 2</rect></_>
    <_>
      <rect>
        15 0 1 3</rect></_>
    <_>
      <rect>
        15 5 5 2</rect></_>
    <_>
      <rect>
        15 7 1 2</rect></_>
    <_>
      <rect>
        15 10 11 1</rect></_>
    <_>
      <rect>
        16 0 5 1</rect></_>
    <_>
      <rect>
        16 1 5 1</rect></_>
    <_>
      <rect>
        16 9 8 1</rect></_>
    <_>
      <rect>
        17 2 5 1</rect></_>
    <_>
      <rect>
        17 4 4 2</rect></_>
    <_>
      <rect>
        17 4 9 1</rect></_>
    <_>
      <rect>
        17 5 4 2</rect></_>
    <_>
      <rect>
        17 7 1 2</rect></_>
    <_>
      <rect>
        17 10 6 1</rect></_>
    <_>
      <rect>
        18 0 2 1</rect></_>
    <_>
      <rect>
        18 1 2 2</rect></_>
    <_>
      <rect>
        18 9 10 1</rect></_>
    <_>
      <rect>
        18 10 2 1</rect></_>
    <_>
      <rect>
        19 0 3 1</rect></_>
    <_>
      <rect>
        20 0 1 2</rect></_>
    <_>
      <rect>
        20 0 1 3</rect></_>
    <_>
      <rect>
        20 3 6 2</rect></_>
    <_>
      <rect>
        21 7 1 2</rect></_>
    <_>
      <rect>
        22 0 7 1</rect></_>
    <_>
      <rect>
        22 1 2 1</rect></_>
    <_>
      <rect>
        22 3 2 1</rect></_>
    <_>
      <rect>
        22 4 2 2</rect></_>
    <_>
      <rect>
        23 0 2 1</rect></_>
    <_>
      <rect>
        23 4 2 2</rect></_>
    <_>
      <rect>
        23 4 3 2</rect></_>
    <_>
      <rect>
        23 9 8 1</rect></_>
    <_>
      <rect>
        24 0 3 1</rect></_>
    <_>
      <rect>
        25 1 4 1</rect></_>
    <_>
      <rect>
        25 9 3 1</rect></_>
    <_>
      <rect>
        25 10 4 1</rect></_>
    <_>
      <rect>
        26 7 1 2</rect></_>
    <_>
      <rect>
        27 0 1 3</rect></_>
    <_>
      <rect>
        27 4 2 2</rect></_>
    <_>
      <rect>
        27 7 1 2</rect></_>
    <_>
      <rect>
        28 0 1 3</rect></_>
    <_>
      <rect>
        28 6 2 1</rect></_>
    <_>
      <rect>
        28 7 1 2</rect></_>
    <_>
      <rect>
        29 0 1 2</rect></_>
    <_>
      <rect>
        29 0 1 3</rect></_>
    <_>
      <rect>
        29 4 2 2</rect></_>
    <_>
      <rect>
        29 10 5 1</rect></_>
    <_>
      <rect>
        31 0 5 1</rect></_>
    <_>
      <rect>
        32 5 2 2</rect></_>
    <_>
      <rect>
        32 6 3 1</rect></_>
    <_>
      <rect>
        32 10 6 1</rect></_>
    <_>
      <rect>
        33 0 1 3</rect></_>
    <_>
      <rect>
        33 0 5 1</rect></_>
    <_>
      <rect>
        33 7 1 2</rect></_>
    <_>
      <rect>
        34 5 2 2</rect></_>
    <_>
      <rect>
        35 6 1 1</rect></_>
    <_>
      <rect>
        35 7 2 2</rect></_>
    <_>
      <rect>
        36 0 4 1</rect></_>
    <_>
      <rect>
        37 0 5 1</rect></_>
    <_>
      <rect>
        37 10 3 1</rect></_>
    <_>
      <rect>
        37 10 5 1</rect></_>
    <_>
      <rect>
        38 6 2 2</rect></_>
    <_>
      <rect>
        38 7 3 2</rect></_>
    <_>
      <rect>
        39 4 1 3</rect></_>
    <_>
      <rect>
        39 7 1 2</rect></_>
    <_>
      <rect>
        39 10 3 1</rect></_>
    <_>
      <rect>
        40 0 2 1</rect></_>
    <_>
      <rect>
        40 5 2 2</rect></_>
    <_>
      <rect>
        45 0 1 1</rect></_>
    <_>
      <rect>
        46 0 2 3</rect></_>
    <_>
      <rect>
        46 2 2 2</rect></_>
    <_>
      <rect>
        46 6 2 2</rect></_>
    <_>
      <rect>
        46 7 2 2</rect></_>
    <_>
      <rect>
        46 9 2 1</rect></_>
    <_>
      <rect>
        46 10 2 1</rect></_>
    <_>
      <rect>
        49 0 1 1</rect></_>
    <_>
      <rect>
        49 0 1 2</rect></_>
    <_>
      <rect>
        49 1 1 1</rect></_>
    <_>
      <rect>
        49 1 1 2</rect></_>
    <_>
      <rect>
        49 2 1 1</rect></_>
    <_>
      <rect>
        49 2 1 2</rect></_>
    <_>
      <rect>
        49 3 1 1</rect></_>
    <_>
      <rect>
        49 3 1 2</rect></_>
    <_>
      <rect>
        49 4 1 1</rect></_>
    <_>
      <rect>
        49 4 1 2</rect></_>
    <_>
      <rect>
        49 6 1 2</rect></_>
    <_>
      <rect>
        49 7 1 1</rect></_>
    <_>
      <rect>
        49 7 1 2</rect></_>
    <_>
      <rect>
        49 8 1 1</rect></_>
    <_>
      <rect>
        49 9 1 1</rect></_>
    <_>
      <rect>
        49 10 1 1</rect></_></features></cascade>
</opencv_storage>
